{
  "<unk>": 0,
  "!": 1,
  "!!##!": 2,
  "##!": 3,
  "##!!": 4,
  "##'": 5,
  "##'t": 6,
  "##,": 7,
  "##-": 8,
  "##-##0##12": 9,
  "##-##01": 10,
  "##-##1##9##29": 11,
  "##-##19##2": 12,
  "##-0": 13,
  "##-1": 14,
  "##.": 15,
  "##/": 16,
  "##/##Ma##d##a##m##,": 17,
  "##/##ma##d##a##m##,": 18,
  "##/M": 19,
  "##/m": 20,
  "##0": 21,
  "##02": 22,
  "##1": 23,
  "##2": 24,
  "##5": 25,
  "##5##9##28": 26,
  "##59##2": 27,
  "##8": 28,
  "##9": 29,
  "##90##2": 30,
  "##92": 31,
  "##:": 32,
  "##?": 33,
  "##A": 34,
  "##AL": 35,
  "##C": 36,
  "##C##Pu##n##e": 37,
  "##CA##L": 38,
  "##CD": 39,
  "##CP": 40,
  "##D": 41,
  "##E": 42,
  "##E##N##T:": 43,
  "##E##NT": 44,
  "##E##Q-##0##1##2": 45,
  "##EN": 46,
  "##EQ": 47,
  "##G": 48,
  "##GE##N##T##:": 49,
  "##I": 50,
  "##I##TI##C##A##L": 51,
  "##IC##A##L": 52,
  "##IT": 53,
  "##L": 54,
  "##M": 55,
  "##MC##P##u##n##e": 56,
  "##N": 57,
  "##P": 58,
  "##PM##C##P##u##n##e": 59,
  "##Q": 60,
  "##R": 61,
  "##R-": 62,
  "##RG##E##N##T##:": 63,
  "##RI##T##I##C##A##L": 64,
  "##S": 65,
  "##SI": 66,
  "##T": 67,
  "##X": 68,
  "##X##XX##X": 69,
  "##XX": 70,
  "##_": 71,
  "##_##c##o##r##p##o##ra##t##i##o##n": 72,
  "##_c##o##r##p##o##r": 73,
  "##a": 74,
  "##a##a##di": 75,
  "##a##c##h##ao": 76,
  "##a##c##hi##n##e": 77,
  "##a##c##hm##e##n##t": 78,
  "##a##c##hr##a": 79,
  "##a##c##ke##d": 80,
  "##a##ce": 81,
  "##a##ch": 82,
  "##a##ch##a": 83,
  "##a##ck": 84,
  "##a##ck##i##n##g": 85,
  "##a##ct": 86,
  "##a##d##a##m,": 87,
  "##a##d##dh##e": 88,
  "##a##da##k": 89,
  "##a##da##m": 90,
  "##a##da##r": 91,
  "##a##dd": 92,
  "##a##de": 93,
  "##a##g##em##e##n##t": 94,
  "##a##ga##r": 95,
  "##a##i##gh##t": 96,
  "##a##i##lu##r##e": 97,
  "##a##i##na##g##e": 98,
  "##a##i##nf##u##l": 99,
  "##a##i##nt": 100,
  "##a##ig": 101,
  "##a##il": 102,
  "##a##il##y": 103,
  "##a##is##e": 104,
  "##a##it##i##n##g": 105,
  "##a##l##a##na": 106,
  "##a##l##ba": 107,
  "##a##l##c##u##la##t##e": 108,
  "##a##l##cu##l": 109,
  "##a##l##di": 110,
  "##a##l##l##y?": 111,
  "##a##l##ty": 112,
  "##a##l_##c##o##r##p##o##r##a##t##i##o##n": 113,
  "##a##la##n": 114,
  "##a##lb": 115,
  "##a##lc": 116,
  "##a##ld": 117,
  "##a##li##t##y": 118,
  "##a##ll##y": 119,
  "##a##lt": 120,
  "##a##ly##a##n": 121,
  "##a##m##ef##u##l": 122,
  "##a##me": 123,
  "##a##mn": 124,
  "##a##n##dl##e##s": 125,
  "##a##n##dr##a": 126,
  "##a##n##ge##r": 127,
  "##a##na##g##e##m##e##n##t": 128,
  "##a##nc##e": 129,
  "##a##nd": 130,
  "##a##ng": 131,
  "##a##ng##e": 132,
  "##a##ni": 133,
  "##a##ni##n##g": 134,
  "##a##nk": 135,
  "##a##nk##s": 136,
  "##a##nt": 137,
  "##a##ny##a##n": 138,
  "##a##p##p##e##ni##n##g": 139,
  "##a##p##pe##d": 140,
  "##a##p##pe##n": 141,
  "##a##p##se##d": 142,
  "##a##ps": 143,
  "##a##r##di##n##g": 144,
  "##a##rb": 145,
  "##a##rd": 146,
  "##a##rk": 147,
  "##a##rs": 148,
  "##a##s##n'##t": 149,
  "##a##s##s##iv##e": 150,
  "##a##s##si": 151,
  "##a##sn": 152,
  "##a##ss": 153,
  "##a##t##hs": 154,
  "##a##ta##l": 155,
  "##a##te": 156,
  "##a##te##d": 157,
  "##a##te##r": 158,
  "##a##th": 159,
  "##a##ti##n##g": 160,
  "##a##ti##o##n": 161,
  "##a##to##r": 162,
  "##a##tu##s": 163,
  "##a##y##ou##t": 164,
  "##a##y?": 165,
  "##a##yi##n##g": 166,
  "##a##yo": 167,
  "##a##yo##r": 168,
  "##a?": 169,
  "##aa##d": 170,
  "##ab": 171,
  "##ac": 172,
  "##ad": 173,
  "##ae": 174,
  "##ag": 175,
  "##ag##e": 176,
  "##ah##i": 177,
  "##ai": 178,
  "##ai##n": 179,
  "##ak": 180,
  "##al": 181,
  "##am": 182,
  "##an": 183,
  "##ao": 184,
  "##ap": 185,
  "##ap##p": 186,
  "##ar": 187,
  "##as": 188,
  "##as##t": 189,
  "##at": 190,
  "##au##t": 191,
  "##av##e": 192,
  "##ay": 193,
  "##b": 194,
  "##b##o##dy": 195,
  "##b##r##ea##k": 196,
  "##b##ri##s": 197,
  "##b##s##i##te": 198,
  "##b##si##t": 199,
  "##bh##i": 200,
  "##bi##d": 201,
  "##bl##e": 202,
  "##bo##d": 203,
  "##br": 204,
  "##br##e": 205,
  "##bs": 206,
  "##c": 207,
  "##c##c##i##de##n##t": 208,
  "##c##ci##d": 209,
  "##c##e##du##r##e": 210,
  "##c##e##s##si##n##g": 211,
  "##c##e##ss": 212,
  "##c##es": 213,
  "##c##i##e##ty": 214,
  "##c##ie##t": 215,
  "##c##o##r##p##o##ra##t##o##r": 216,
  "##c##pu##n##e": 217,
  "##c##r##oa##c##h##m##e##n##t": 218,
  "##c##ti##o##n": 219,
  "##c##to##r": 220,
  "##ca##l": 221,
  "##ca##s##s": 222,
  "##cc": 223,
  "##cd": 224,
  "##ce": 225,
  "##ce##d": 226,
  "##ch": 227,
  "##ci": 228,
  "##ci##a##l": 229,
  "##ck": 230,
  "##co##r##p##o##r": 231,
  "##cp": 232,
  "##cr##o": 233,
  "##ct": 234,
  "##d": 235,
  "##d##ex": 236,
  "##da##m##n": 237,
  "##da##t##e": 238,
  "##de": 239,
  "##di##n##g": 240,
  "##e": 241,
  "##e##am": 242,
  "##e##as##e": 243,
  "##e##av": 244,
  "##e##d##ia##t##e": 245,
  "##e##di": 246,
  "##e##e##pi##n##g": 247,
  "##e##ep": 248,
  "##e##l##li##n##g": 249,
  "##e##l##lo": 250,
  "##e##l##p!": 251,
  "##e##ll": 252,
  "##e##ll##y": 253,
  "##e##lp": 254,
  "##e##n##di##n##g": 255,
  "##e##n##ti##a##l": 256,
  "##e##na##?": 257,
  "##e##na##l##t##y": 258,
  "##e##nc##e": 259,
  "##e##nd": 260,
  "##e##ne##w": 261,
  "##e##ns##e": 262,
  "##e##ns##i##o##n": 263,
  "##e##nt": 264,
  "##e##r##t!": 265,
  "##e##r##t##i##f##i##ca##t##e": 266,
  "##e##r##t##if##i##c": 267,
  "##e##r##ti": 268,
  "##e##r##ty": 269,
  "##e##r##v##i##ce": 270,
  "##e##r##vi##c": 271,
  "##e##ra": 272,
  "##e##re": 273,
  "##e##re##n##c##e": 274,
  "##e##ri##n##g": 275,
  "##e##ro": 276,
  "##e##rt": 277,
  "##e##rv": 278,
  "##e##ry": 279,
  "##e##t##hi##n##g": 280,
  "##e##th": 281,
  "##ea": 282,
  "##ea##r": 283,
  "##ed": 284,
  "##ee": 285,
  "##eh": 286,
  "##el": 287,
  "##el##y": 288,
  "##en": 289,
  "##eo##n##e": 290,
  "##er": 291,
  "##es": 292,
  "##et": 293,
  "##ev##a##n##c##e": 294,
  "##ew": 295,
  "##ey": 296,
  "##f": 297,
  "##f##l##o##wi##n##g": 298,
  "##f##l##ow": 299,
  "##f##o##rm##e##r": 300,
  "##fe##r##e##n##c##e": 301,
  "##fi##c": 302,
  "##fl##o": 303,
  "##fo##r": 304,
  "##ft##i##n##g": 305,
  "##fu##l": 306,
  "##g": 307,
  "##g##l##ec##t": 308,
  "##g##ry": 309,
  "##g##u##s##ti##n##g": 310,
  "##g##us##t": 311,
  "##g##wa##n": 312,
  "##ge": 313,
  "##ge##d": 314,
  "##ge##n##t": 315,
  "##gg##e##d": 316,
  "##gi##n##g": 317,
  "##gl##e": 318,
  "##gr": 319,
  "##gu": 320,
  "##gw": 321,
  "##h": 322,
  "##h##a##ra##m": 323,
  "##h##ag##w##a##n": 324,
  "##h##e##jo": 325,
  "##h##ec##k": 326,
  "##h##ej": 327,
  "##h##o##ke##d": 328,
  "##h##ok": 329,
  "##h##ol##e##s": 330,
  "##h##ou##t": 331,
  "##ha": 332,
  "##ha##i": 333,
  "##ha##m##e##f##u##l": 334,
  "##ha##r": 335,
  "##ha##t": 336,
  "##he": 337,
  "##he##r##e": 338,
  "##hi": 339,
  "##ho": 340,
  "##ht": 341,
  "##hy##a##n": 342,
  "##i": 343,
  "##i##a##ls": 344,
  "##i##c##i##pa##l##_##c##o##r##p##o##r##a##t##i##o##n": 345,
  "##i##c##k##up": 346,
  "##i##c##ke##t": 347,
  "##i##c##ku": 348,
  "##i##c##t##i##o##ns": 349,
  "##i##c##ti##o##n": 350,
  "##i##ca##l": 351,
  "##i##ca##t##e": 352,
  "##i##ce##n##s##e": 353,
  "##i##ch": 354,
  "##i##ci##p": 355,
  "##i##ck": 356,
  "##i##ct": 357,
  "##i##de": 358,
  "##i##dg##e": 359,
  "##i##g##h##ts": 360,
  "##i##g##na##l": 361,
  "##i##ga##d##e": 362,
  "##i##gh": 363,
  "##i##gh##t": 364,
  "##i##gn": 365,
  "##i##j##li": 366,
  "##i##jl": 367,
  "##i##kh##a": 368,
  "##i##l##e##ga": 369,
  "##i##ld##i##n##g": 370,
  "##i##ma##l": 371,
  "##i##mi##n##g": 372,
  "##i##n##gl##e": 373,
  "##i##nd": 374,
  "##i##ne": 375,
  "##i##ng": 376,
  "##i##ni##s##t##r##a##t##i##o##n": 377,
  "##i##nk": 378,
  "##i##nk##i##n##g": 379,
  "##i##ns": 380,
  "##i##pe": 381,
  "##i##pl##e": 382,
  "##i##py##a": 383,
  "##i##r##ec##t": 384,
  "##i##r##th": 385,
  "##i##r##ty": 386,
  "##i##rt": 387,
  "##i##s##t##ra##t##i##o##n": 388,
  "##i##sg##u##s##t##i##n##g": 389,
  "##i##si##o##n": 390,
  "##i##t##i##ze##n": 391,
  "##i##t##te##d": 392,
  "##i##tc##h": 393,
  "##i##ti##c##a##l": 394,
  "##i##ti##z": 395,
  "##i##to": 396,
  "##i##tt": 397,
  "##i##ty": 398,
  "##ia##l": 399,
  "##ia##l##l##y": 400,
  "##ic": 401,
  "##id": 402,
  "##ig": 403,
  "##ij": 404,
  "##ik": 405,
  "##il": 406,
  "##il##e##g": 407,
  "##il##y": 408,
  "##im": 409,
  "##in": 410,
  "##io##n": 411,
  "##ip": 412,
  "##ir": 413,
  "##ir##e": 414,
  "##is": 415,
  "##is##t##e##n": 416,
  "##is##t##r": 417,
  "##it": 418,
  "##iv##e##r##y": 419,
  "##iz": 420,
  "##j": 421,
  "##j##u##re##d": 422,
  "##je##n##t": 423,
  "##ju##r": 424,
  "##k": 425,
  "##ka": 426,
  "##ka##g##e": 427,
  "##ke": 428,
  "##ki##l": 429,
  "##ki##n##g": 430,
  "##ks": 431,
  "##l": 432,
  "##l##e##te##l##y": 433,
  "##l##ea##n##i##n##g": 434,
  "##l##eg": 435,
  "##l##es": 436,
  "##l##et": 437,
  "##l##i##ca##t##i##o##n": 438,
  "##l##l##e##ga##l": 439,
  "##l##og##g##e##d": 440,
  "##l##y:": 441,
  "##l##yo##v##e##r": 442,
  "##la##e": 443,
  "##la##p##s##e##d": 444,
  "##le": 445,
  "##li##c": 446,
  "##li##n##e": 447,
  "##ll##e##g": 448,
  "##lo": 449,
  "##lv##e": 450,
  "##ly": 451,
  "##m": 452,
  "##m##b##u##la##n##c##e": 453,
  "##m##be##r": 454,
  "##m##bu##l": 455,
  "##m##e##rc##i##a##l": 456,
  "##mb": 457,
  "##mc##p##u##n##e": 458,
  "##me##d##i##a##t##e": 459,
  "##me##l##y": 460,
  "##me##n##t": 461,
  "##me##r": 462,
  "##mi##c##a##l": 463,
  "##mi##n##i##s##t##r##a##t##i##o##n": 464,
  "##mi##t##t##e##d": 465,
  "##mm##e##d##i##a##t##e": 466,
  "##mp": 467,
  "##n": 468,
  "##na##p##p##e##d": 469,
  "##ne": 470,
  "##no##w": 471,
  "##o": 472,
  "##o##dd##a##m##n": 473,
  "##o##di##n##g": 474,
  "##o##ga": 475,
  "##o##gg##i##n##g": 476,
  "##o##l##ve##d": 477,
  "##o##ll##a##p##s##e##d": 478,
  "##o##lv": 479,
  "##o##mp##l##a##i##n##t": 480,
  "##o##n##e?": 481,
  "##o##n##s##t##r##uc##t##i##o##n": 482,
  "##o##n##s##t##ru": 483,
  "##o##n##th": 484,
  "##o##ne": 485,
  "##o##ni##n##g": 486,
  "##o##ns##t##r": 487,
  "##o##nt": 488,
  "##o##o##t##pa##t##h##s": 489,
  "##o##o##tp": 490,
  "##o##r##p##o##ra##t##o##r": 491,
  "##o##r##r##ib##l##e": 492,
  "##o##r##ta##l": 493,
  "##o##rp##o##r": 494,
  "##o##rr##i": 495,
  "##o##rs##t": 496,
  "##o##rt": 497,
  "##o##s##q##ui##t##o": 498,
  "##o##sq##u": 499,
  "##o##th##o##l##e##s": 500,
  "##o##v##e##ri##n##g": 501,
  "##ob": 502,
  "##oc##a##l": 503,
  "##od": 504,
  "##og": 505,
  "##ol": 506,
  "##om": 507,
  "##on": 508,
  "##oo##t": 509,
  "##or": 510,
  "##os": 511,
  "##ot": 512,
  "##ou##r": 513,
  "##ov##e##r": 514,
  "##ow": 515,
  "##p": 516,
  "##p##a##r##tm##e##n##t": 517,
  "##p##a##rk##i##n##g": 518,
  "##p##a##rt": 519,
  "##p##e##ns##i##o##n": 520,
  "##p##la##i##n##t": 521,
  "##p##li##c##a##t##e": 522,
  "##p##o##rt##i##n##g": 523,
  "##p##pl##y": 524,
  "##pa##r": 525,
  "##pd##a##t##e": 526,
  "##pe##n": 527,
  "##pe##r##t##y": 528,
  "##pl": 529,
  "##pl##e##t##e##l##y": 530,
  "##pl##y": 531,
  "##pm##c##p##u##n##e": 532,
  "##po##r": 533,
  "##pp": 534,
  "##q": 535,
  "##q##ui##r##e": 536,
  "##qu": 537,
  "##qu##e##s##t": 538,
  "##r": 539,
  "##r##a##n##sf##o##r##m##e##r": 540,
  "##r##a##nc##h": 541,
  "##r##a##ng##e": 542,
  "##r##a##ns": 543,
  "##r##ea##r##s": 544,
  "##r##ee": 545,
  "##r##ee##t": 546,
  "##r##em##e##l##y": 547,
  "##r##ie##v##a##n##c##e": 548,
  "##r##ol": 549,
  "##r##u##ni##n##g": 550,
  "##r-": 551,
  "##ra": 552,
  "##ra##c##k": 553,
  "##ra##i##g##h##t": 554,
  "##ra##n": 555,
  "##ra##y##i##n##g": 556,
  "##rd": 557,
  "##re": 558,
  "##ri": 559,
  "##ro": 560,
  "##rr##a##n##g##e": 561,
  "##ru##n": 562,
  "##s": 563,
  "##s!##!": 564,
  "##s##i##de": 565,
  "##s##i##de##n##t##i##a##l": 566,
  "##s##t##ra##t##e##d": 567,
  "##s##t##ri##c##t##i##o##n##s": 568,
  "##s##te##n": 569,
  "##s##tr": 570,
  "##s##u##e:": 571,
  "##sa##p##p": 572,
  "##se": 573,
  "##si": 574,
  "##si##d": 575,
  "##si##o##n": 576,
  "##sk": 577,
  "##so##l##v##e##d": 578,
  "##st": 579,
  "##su##e": 580,
  "##t": 581,
  "##ta##c##k##e##d": 582,
  "##ta##t##u##s": 583,
  "##te##r": 584,
  "##ti##n##g": 585,
  "##ti##p##l##e": 586,
  "##tr##e##m##e##l##y": 587,
  "##u": 588,
  "##u##bl##i##c": 589,
  "##u##bm##i##t##t##e##d": 590,
  "##u##ch": 591,
  "##u##ck": 592,
  "##u##e##s##t##i##o##n:": 593,
  "##u##e##s##ti##o##n": 594,
  "##u##es##t": 595,
  "##u##ll##y": 596,
  "##u##lt##i##p##l##e": 597,
  "##u##ne": 598,
  "##u##ni##c##i##p##a##l##_##c##o##r##p##o##r##a##t##i##o##n": 599,
  "##u##sk##i##l": 600,
  "##u##sp##e##n##s##i##o##n": 601,
  "##u##tt##e##r": 602,
  "##u##tt##i##n##g": 603,
  "##ub": 604,
  "##uc": 605,
  "##ue": 606,
  "##ui##c##k": 607,
  "##ui##l##d##i##n##g": 608,
  "##ui##r##e": 609,
  "##ul": 610,
  "##um##b##e##r": 611,
  "##un": 612,
  "##up##p##l##y": 613,
  "##ur": 614,
  "##ur##e": 615,
  "##us": 616,
  "##us##e": 617,
  "##us##t##r##a##t##e##d": 618,
  "##ut": 619,
  "##v": 620,
  "##v##a##n##c##e.": 621,
  "##v##e##re": 622,
  "##v##e##ry": 623,
  "##v##em##e##n##t": 624,
  "##va##n##c##e": 625,
  "##ve": 626,
  "##ve##r": 627,
  "##vi##n##g": 628,
  "##w": 629,
  "##w!##!": 630,
  "##wa##g##e": 631,
  "##we##e##p##i##n##g": 632,
  "##wh##e##r##e": 633,
  "##x": 634,
  "##x##xx##x": 635,
  "##xt##r##e##m##e##l##y": 636,
  "##xx": 637,
  "##y": 638,
  "##ya": 639,
  "##ya##n": 640,
  "##ye": 641,
  "##z": 642,
  "1": 643,
  "10": 644,
  "15": 645,
  "3": 646,
  "3r##d": 647,
  "4": 648,
  "45##9##2##8": 649,
  "5": 650,
  "8": 651,
  "89##0##2": 652,
  "9": 653,
  "9##9##2A": 654,
  "9##9##2a": 655,
  "99##2": 656,
  "?": 657,
  "??": 658,
  "@": 659,
  "@##ma##y##o##r": 660,
  "@##mu##n##i##c##i##p##a##l##_##c##o##r##p##o##r##a##t##i##o##n": 661,
  "@P##M##C##P##u##n##e": 662,
  "@c##o##r##p##o##r##a##t##o##r": 663,
  "@m": 664,
  "@p##m##c##p##u##n##e": 665,
  "A": 666,
  "Ar##r##a##n##g##e": 667,
  "C": 668,
  "CR##I##T##I##C##A##L": 669,
  "Ca##n": 670,
  "Ch##e##c##k": 671,
  "Co##m##p##l##a##i##n##t": 672,
  "D": 673,
  "De##a##r": 674,
  "Di##s##g##u##s##t##i##n##g": 675,
  "E": 676,
  "Ev##e##r##y": 677,
  "F": 678,
  "FS##I": 679,
  "H": 680,
  "He##l##l##o": 681,
  "He##l##p##!": 682,
  "He##y": 683,
  "Ho##r##r##i##b##l##e": 684,
  "Ho##w": 685,
  "I": 686,
  "ID": 687,
  "IT": 688,
  "Im##m##e##d##i##a##t##e": 689,
  "L": 690,
  "Li##s##t##e##n": 691,
  "M": 692,
  "MC##D": 693,
  "Q": 694,
  "Qu##e##s##t##i##o##n##:": 695,
  "R": 696,
  "R##ep##o##r##t##i##n##g": 697,
  "R##eq##u##e##s##t": 698,
  "R##eq##u##i##r##e": 699,
  "RE##Q##-##0##1##2": 700,
  "Re": 701,
  "S": 702,
  "S##i##r,": 703,
  "S##i##r/##M##a##d##a##m##,": 704,
  "SR##-": 705,
  "Si##c##k": 706,
  "Si##r": 707,
  "St##a##t##u##s": 708,
  "T": 709,
  "To": 710,
  "Tr##a##c##k": 711,
  "U": 712,
  "UR##G##E##N##T##:": 713,
  "Up##d##a##t##e": 714,
  "W": 715,
  "We": 716,
  "Wh##a##t": 717,
  "Wh##e##r##e": 718,
  "Wo##r##s##t": 719,
  "X": 720,
  "XX##X##X##X": 721,
  "a": 722,
  "a##dm##i##n##i##s##t##r##a##t##i##o##n": 723,
  "a##dv##a##n##c##e##.": 724,
  "a##le##r##t##!": 725,
  "a##ll": 726,
  "a##n##yo##n##e##?": 727,
  "a##nd": 728,
  "a##ng##r##y": 729,
  "a##ni##m##a##l": 730,
  "a##ny": 731,
  "a##p##p##l##yi##n##g": 732,
  "a##p##pl##i##c##a##t##i##o##n": 733,
  "a##p##pl##y": 734,
  "a##rr##a##n##g##e": 735,
  "a##rr##e##a##r##s": 736,
  "a##tt##a##c##k##e##d": 737,
  "aa##g": 738,
  "aa##o": 739,
  "ab##h##i": 740,
  "ac##c##i##d##e##n##t": 741,
  "ac##t##i##o##n": 742,
  "ad": 743,
  "al": 744,
  "am": 745,
  "am##b##u##l##a##n##c##e": 746,
  "an": 747,
  "ap##p": 748,
  "ar": 749,
  "ar##e": 750,
  "as##a##p##p": 751,
  "at": 752,
  "b": 753,
  "b##la##c##k": 754,
  "b##li##n##d": 755,
  "b##ri##d##g##e": 756,
  "b##ri##g##a##d##e": 757,
  "ba##c##h##a##o": 758,
  "ba##n##d##r##a": 759,
  "ba##n##y##a##n": 760,
  "bh##a##g##w##a##n": 761,
  "bh##a##i": 762,
  "bh##a##r": 763,
  "bh##e##j##o": 764,
  "bi##j##l##i": 765,
  "bi##n##s": 766,
  "bi##r##t##h": 767,
  "bl": 768,
  "br": 769,
  "br##a##n##c##h": 770,
  "br##o": 771,
  "bu##i##l##d##i##n##g": 772,
  "bu##t": 773,
  "c": 774,
  "c##a##rc##a##s##s": 775,
  "c##h##ec##k": 776,
  "c##h##em##i##c##a##l": 777,
  "c##ha##l##a##n##a": 778,
  "c##hh##a##t": 779,
  "c##o##me": 780,
  "c##o##mm##e##r##c##i##a##l": 781,
  "c##o##mp##l##a##i##n##t": 782,
  "c##o##mp##l##e##t##e##l##y": 783,
  "c##o##n##ta##c##t": 784,
  "c##o##n##tr##o##l": 785,
  "c##ra##c##k##i##n##g": 786,
  "c##ra##t##e##r": 787,
  "c##ri##t##i##c##a##l": 788,
  "ca##l##c##u##l##a##t##e": 789,
  "ca##m##e": 790,
  "ca##n": 791,
  "ca##r": 792,
  "ce##r##t##i##f##i##c##a##t##e": 793,
  "ch": 794,
  "ch##e": 795,
  "ch##o##k##e##d": 796,
  "ci##t##i##z##e##n": 797,
  "ci##t##y": 798,
  "cl##e##a##n##i##n##g": 799,
  "cl##o##g##g##e##d": 800,
  "co##l##l##a##p##s##e##d": 801,
  "co##m": 802,
  "co##n##s##t##r##u##c##t##i##o##n": 803,
  "co##n##t": 804,
  "co##r##p##o##r##a##t##o##r": 805,
  "co##v##e##r##i##n##g": 806,
  "cr": 807,
  "cu##t##t##i##n##g": 808,
  "d": 809,
  "d##a##ys": 810,
  "d##e##la##y##?": 811,
  "d##e##li##v##e##r##y": 812,
  "d##ea##d": 813,
  "d##ea##r": 814,
  "d##ea##t##h": 815,
  "d##eb##r##i##s": 816,
  "d##ep##a##r##t##m##e##n##t": 817,
  "d##es##k": 818,
  "d##og": 819,
  "d##oo##b": 820,
  "d##oo##r": 821,
  "d##ra##i##n##a##g##e": 822,
  "d##ri##n##k##i##n##g": 823,
  "d##um##p": 824,
  "d##up##l##i##c##a##t##e": 825,
  "da##b": 826,
  "da##d##a##r": 827,
  "da##i##l##y": 828,
  "da##n##g##e##r": 829,
  "da##t##e": 830,
  "da##y": 831,
  "de": 832,
  "de##l": 833,
  "de##n##a##?": 834,
  "dh##y##a##n": 835,
  "di##k##h##a": 836,
  "di##r##e##c##t": 837,
  "di##r##t##y": 838,
  "di##s##g##u##s##t##i##n##g": 839,
  "do": 840,
  "do##n##e": 841,
  "dr": 842,
  "du": 843,
  "du##e": 844,
  "e": 845,
  "e##n##te##r##i##n##g": 846,
  "e##n##ti##r##e": 847,
  "e##nc##r##o##a##c##h##m##e##n##t": 848,
  "e##nt": 849,
  "e##v##e##r##yw##h##e##r##e": 850,
  "ea##s##t": 851,
  "en": 852,
  "ev##e##r##y": 853,
  "ex##t##r##e##m##e##l##y": 854,
  "f": 855,
  "f##i##na##l##l##y##?": 856,
  "f##i##nd": 857,
  "f##i##ne": 858,
  "f##il##e": 859,
  "f##ix": 860,
  "f##l##oa##t##i##n##g": 861,
  "f##l##oo##d##i##n##g": 862,
  "f##l##oo##r": 863,
  "f##o##r##m?": 864,
  "f##o##r##ma##l##l##y": 865,
  "f##o##rm": 866,
  "f##ro##m": 867,
  "f##ru##s##t##r##a##t##e##d": 868,
  "fa##i##l##u##r##e": 869,
  "fa##s##t": 870,
  "fa##t##a##l": 871,
  "fe##l##l": 872,
  "fi": 873,
  "fi##n": 874,
  "fi##r##e": 875,
  "fl##o": 876,
  "fl##y##o##v##e##r": 877,
  "fo##g##g##i##n##g": 878,
  "fo##o##t##p##a##t##h##s": 879,
  "fo##r": 880,
  "fr": 881,
  "fs##i": 882,
  "g": 883,
  "g##a##r##ba##g##e": 884,
  "g##a##r##bg##e": 885,
  "g##a##ya": 886,
  "g##a##ye": 887,
  "g##a##yi": 888,
  "ga##a##d##i": 889,
  "ga##d##d##h##e": 890,
  "ga##r##b": 891,
  "ga##s": 892,
  "ga##t##e": 893,
  "ga##y": 894,
  "ge##t": 895,
  "gi##r": 896,
  "gl##a##e": 897,
  "go##d##d##a##m##n": 898,
  "gr##i##e##v##a##n##c##e": 899,
  "gu##l##l##y": 900,
  "gu##t##t##e##r": 901,
  "h": 902,
  "h##e##a##vi##l##y": 903,
  "h##e##a##vy": 904,
  "h##e##l##p!": 905,
  "h##e##r##e,": 906,
  "h##ou##s##e": 907,
  "h##ow": 908,
  "h##ua": 909,
  "h##ug##e": 910,
  "ha##i": 911,
  "ha##n##d##l##e##s": 912,
  "ha##p##p##e##n##i##n##g": 913,
  "ha##s##n##'##t": 914,
  "he##a##v": 915,
  "he##l##l": 916,
  "he##l##l##o": 917,
  "he##l##p": 918,
  "he##r##e": 919,
  "he##y": 920,
  "hi##g##h": 921,
  "ho": 922,
  "ho##g##a": 923,
  "ho##r##r##i##b##l##e": 924,
  "hu": 925,
  "i": 926,
  "i##m##m##e##d##i##a##t##el##y": 927,
  "i##n##fo": 928,
  "i##n##fr##a": 929,
  "i##nd##e##x": 930,
  "i##nf": 931,
  "i##nj##u##r##e##d": 932,
  "i##sk##a": 933,
  "i##ss##u##e##:": 934,
  "i##t.": 935,
  "i##tn##e": 936,
  "id": 937,
  "il##l##e##g##a##l": 938,
  "im##m##e##d##i##a##t##e": 939,
  "in": 940,
  "is": 941,
  "it": 942,
  "j": 943,
  "ja##l##d##i": 944,
  "jo##b": 945,
  "k": 946,
  "k##a##re": 947,
  "k##a##ro": 948,
  "k##ab": 949,
  "k##ah##a": 950,
  "k##i##dh##a##r": 951,
  "k##i##ds": 952,
  "k##iy##a": 953,
  "k##ri##p##y##a": 954,
  "k##y##ah##a##i": 955,
  "ka": 956,
  "ka##c##h##r##a": 957,
  "ka##i##s##e": 958,
  "ka##l##y##a##n": 959,
  "ka##r": 960,
  "ke": 961,
  "ki": 962,
  "ki##d": 963,
  "kn##o##w": 964,
  "kr": 965,
  "ku##c##h": 966,
  "ky##a": 967,
  "l": 968,
  "l##a##gr##i": 969,
  "l##e##ak##a##g##e": 970,
  "l##e##ak##s": 971,
  "l##i##n##k?": 972,
  "l##if##t##i##n##g": 973,
  "l##ik##e": 974,
  "l##is##t##e##n": 975,
  "l##iv##e": 976,
  "l##iv##i##n##g": 977,
  "l##iy##e": 978,
  "la##g": 979,
  "la##u##t": 980,
  "la##y##o##u##t": 981,
  "le##a": 982,
  "li": 983,
  "li##c##e##n##s##e": 984,
  "li##g##h##t##s": 985,
  "li##n##k": 986,
  "lo##c##a##l": 987,
  "lo##g": 988,
  "m": 989,
  "m##ei##n": 990,
  "m##u##n##i##c##i##p##a##l##_##c##o##r##p##o##r##a##t##i##o##n-##1##9##2##9": 991,
  "ma##c##h##i##n##e": 992,
  "ma##i##n": 993,
  "ma##l##b##a": 994,
  "ma##n##a##g##e##m##e##n##t": 995,
  "ma##p": 996,
  "ma##s##s##i##v##e": 997,
  "mc##d": 998,
  "me": 999,
  "me##r##a": 1000,
  "mg": 1001,
  "mi##l##e##g##a": 1002,
  "mo##n##t##h": 1003,
  "mo##s##q##u##i##t##o": 1004,
  "mu##l##t##i##p##l##e": 1005,
  "mu##n##i##c##i##p##a##l##_##c##o##r##p##o##r##a##t##i##o##n": 1006,
  "mu##s##k##i##l": 1007,
  "my": 1008,
  "n": 1009,
  "n##e##e##de##d": 1010,
  "n##ea##r": 1011,
  "n##ee##d": 1012,
  "n##eg##l##e##c##t": 1013,
  "n##ew": 1014,
  "n##ob##o##d##y": 1015,
  "n##ot": 1016,
  "n##ow##!##!": 1017,
  "n##u##m##b##e##r?": 1018,
  "na##g##a##r": 1019,
  "na##h##i": 1020,
  "na##n##g##e": 1021,
  "ne": 1022,
  "no": 1023,
  "nu##m##b##e##r": 1024,
  "o": 1025,
  "o##f##f##i##c##e##r:": 1026,
  "o##f##f##i##ce##r": 1027,
  "o##f##f##i##ci##a##l##l##y": 1028,
  "o##f##f##i##ci##a##l##s": 1029,
  "o##ff##i##c": 1030,
  "o##nl##i##n##e": 1031,
  "o##u##tb##r##e##a##k": 1032,
  "o##u##ts##i##d##e": 1033,
  "o##v##e##rf##l##o##w##i##n##g": 1034,
  "of": 1035,
  "on": 1036,
  "op##e##n": 1037,
  "or": 1038,
  "ou##r": 1039,
  "ou##t": 1040,
  "ov##e##r": 1041,
  "p": 1042,
  "p##aa##n##i": 1043,
  "p##av##e##m##e##n##t": 1044,
  "p##es##t": 1045,
  "p##l##e##a##s##e.": 1046,
  "p##l##z.": 1047,
  "p##le##a##s##e": 1048,
  "p##lo##t": 1049,
  "p##ls": 1050,
  "p##lz": 1051,
  "p##r##o##vi##d##e": 1052,
  "p##r##o##vi##s##i##o##n": 1053,
  "p##r##oc##e##d##u##r##e": 1054,
  "p##r##oc##e##s##s##i##n##g": 1055,
  "p##r##op##e##r##t##y": 1056,
  "p##r##ov": 1057,
  "pa": 1058,
  "pa##i##n##f##u##l": 1059,
  "pa##r##k": 1060,
  "pa##y": 1061,
  "pa##y##i##n##g": 1062,
  "pe": 1063,
  "pe##n##a##l##t##y": 1064,
  "pe##n##d##i##n##g": 1065,
  "pi##c##k##u##p": 1066,
  "pi##p##e": 1067,
  "pi##t##c##h": 1068,
  "pl": 1069,
  "po##r##t##a##l": 1070,
  "po##t##h##o##l##e##s": 1071,
  "pr##o": 1072,
  "pr##u##n##i##n##g": 1073,
  "pu##b##l##i##c": 1074,
  "pu##r##e": 1075,
  "q": 1076,
  "q##u##e##s##t##i##o##n!##!": 1077,
  "q##u##e##s##t##i##o##n:": 1078,
  "qu##e##s##t##i##o##n": 1079,
  "qu##i##c##k": 1080,
  "r": 1081,
  "r##ab##i##d": 1082,
  "r##ah##a": 1083,
  "r##ah##e": 1084,
  "r##e##ga##r##d##i##n##g": 1085,
  "r##e##gi##s##t##r##a##t##i##o##n": 1086,
  "r##e##q##u##e##s##t.": 1087,
  "r##e##q-##0##1##2": 1088,
  "r##e##qu##e##s##t": 1089,
  "r##e##qu##i##r##e": 1090,
  "r##ea##l##i##t##y": 1091,
  "r##ef##e##r##e##n##c##e": 1092,
  "r##eg": 1093,
  "r##ep##l##y": 1094,
  "r##ep##o##r##t##i##n##g": 1095,
  "r##eq": 1096,
  "r##es##i##d##e##n##t##i##a##l": 1097,
  "r##es##o##l##v##e##d": 1098,
  "r##es##t##r##i##c##t##i##o##n##s": 1099,
  "r##oa##d": 1100,
  "r##od": 1101,
  "r##oo##m": 1102,
  "ra": 1103,
  "re": 1104,
  "re##n##e##w": 1105,
  "ri##g##h##t": 1106,
  "ro": 1107,
  "s": 1108,
  "s##ec##t##o##r": 1109,
  "s##ev##e##r##e": 1110,
  "s##ew##a##g##e": 1111,
  "s##i##nc##e": 1112,
  "s##i##nk##i##n##g": 1113,
  "s##i##r,": 1114,
  "s##i##r/##m##a##d##a##m##,": 1115,
  "s##me##l##l##i##n##g": 1116,
  "s##me##l##l##y": 1117,
  "s##o##me##o##n##e": 1118,
  "s##o##me##t##h##i##n##g": 1119,
  "s##oc##i##e##t##y": 1120,
  "s##ol##v##e": 1121,
  "s##pa##c##e": 1122,
  "s##pr##a##y##i##n##g": 1123,
  "s##t##r##e##e##ts": 1124,
  "s##ta##t##i##o##n": 1125,
  "s##ta##t##u##s": 1126,
  "s##tr##a##i##g##h##t": 1127,
  "s##tr##e##e##t": 1128,
  "s##tu##c##k": 1129,
  "sa##d##a##k": 1130,
  "sa##m##e": 1131,
  "sa##v##e": 1132,
  "se": 1133,
  "se##n##d": 1134,
  "se##r##v##i##c##e": 1135,
  "sh##a##m##e##f##u##l": 1136,
  "sh##a##r##a##m": 1137,
  "si##c##k": 1138,
  "si##g##n##a##l": 1139,
  "si##n": 1140,
  "si##n##g##l##e": 1141,
  "si##r": 1142,
  "sm": 1143,
  "sn##a##p##p##e##d": 1144,
  "so": 1145,
  "so##m": 1146,
  "sp": 1147,
  "sp##a##r##k##i##n##g": 1148,
  "sr##-": 1149,
  "st": 1150,
  "su##b##m##i##t##t##e##d": 1151,
  "su##p##p##l##y": 1152,
  "su##s##p##e##n##s##i##o##n": 1153,
  "sw##e##e##p##i##n##g": 1154,
  "t": 1155,
  "t##a##n##ke##r": 1156,
  "t##a##xe##s": 1157,
  "t##aa##r": 1158,
  "t##ak": 1159,
  "t##ax": 1160,
  "t##ha##n##k##s": 1161,
  "t##he": 1162,
  "t##hi##s": 1163,
  "t##o##ta##l": 1164,
  "t##o##ta##l##l##y": 1165,
  "t##oh": 1166,
  "t##oo##t": 1167,
  "t##ot": 1168,
  "t##ra##c##k": 1169,
  "t##ra##d##e": 1170,
  "t##ru##c##k": 1171,
  "ta": 1172,
  "ta##n##k": 1173,
  "te##a##m": 1174,
  "te##l##l": 1175,
  "te##n##s##i##o##n": 1176,
  "th": 1177,
  "ti##c##k##e##t": 1178,
  "ti##m##i##n##g": 1179,
  "to": 1180,
  "tr": 1181,
  "tr##a##n##s##f##o##r##m##e##r": 1182,
  "tr##e##e": 1183,
  "u": 1184,
  "u##r##g##e##n##t:": 1185,
  "u##r##g##e##n##tl##y##:": 1186,
  "u##rg##e##n##t": 1187,
  "u##rj##e##n##t": 1188,
  "up##d##a##t##e": 1189,
  "ur": 1190,
  "us##!##!": 1191,
  "v": 1192,
  "ve##r##y": 1193,
  "w": 1194,
  "w##e##ek": 1195,
  "w##e##ek##s": 1196,
  "w##eb##s##i##t##e": 1197,
  "w##ee": 1198,
  "w##h##a##t?": 1199,
  "w##ha##t": 1200,
  "w##he##r##e": 1201,
  "w##hi##c##h": 1202,
  "w##hy": 1203,
  "w##i##th": 1204,
  "w##i##th##o##u##t": 1205,
  "w##o##rk##i##n##g": 1206,
  "w##o##rs##t": 1207,
  "w##te##r": 1208,
  "w##tf": 1209,
  "wa##i##t##i##n##g": 1210,
  "wa##n##t": 1211,
  "wa##r##d": 1212,
  "wa##t##e##r": 1213,
  "we": 1214,
  "wh": 1215,
  "wi##r##e": 1216,
  "wi##t": 1217,
  "wo##r": 1218,
  "wt": 1219,
  "x": 1220,
  "xx##x##x##x": 1221,
  "y": 1222,
  "ye##h": 1223,
  "ye##t": 1224,
  "yo##u##r": 1225,
  "z": 1226,
  "ze##r##o": 1227,
  "zo##n##i##n##g": 1228,
  "🚨": 1229
}